TRT-8601-EntropyCalibration2
input_1:0: 3c010a14
conv1/convolution:0: 3c865d4d
(Unnamed Layer* 1) [Constant]_output: 31497a0a
(Unnamed Layer* 2) [Shuffle]_output: 31497a0a
conv1/BiasAdd:0: 3c865d4e
(Unnamed Layer* 4) [Constant]_output: 3e28f658
bn_conv1/batchnorm/mul_1:0: 3dd9b536
(Unnamed Layer* 6) [Constant]_output: 3cfac692
bn_conv1/batchnorm/add_1:0: 3d03d0ee
activation_1/Relu:0: 3d266dbd
block_1a_conv_shortcut/BiasAdd:0: 3c3bf1b9
(Unnamed Layer* 10) [Constant]_output: 3e88595f
block_1a_bn_shortcut/batchnorm/mul_1:0: 3ddc47e6
(Unnamed Layer* 12) [Constant]_output: 3cce92ff
block_1a_bn_shortcut/batchnorm/add_1:0: 3c98e495
block_1a_conv_1/convolution:0: 3d6b4fc9
(Unnamed Layer* 15) [Constant]_output: 316afbeb
(Unnamed Layer* 16) [Shuffle]_output: 316afbeb
block_1a_conv_1/BiasAdd:0: 3d6b4fc9
(Unnamed Layer* 18) [Constant]_output: 3e51f9d8
block_1a_bn_1/batchnorm/mul_1:0: 3e1159f0
(Unnamed Layer* 20) [Constant]_output: 3d4f0074
block_1a_bn_1/batchnorm/add_1:0: 3d22dd95
block_1a_relu_1/Relu:0: 3d1fa23c
block_1a_conv_2/convolution:0: 3d19d587
(Unnamed Layer* 24) [Constant]_output: 315986ce
(Unnamed Layer* 25) [Shuffle]_output: 315986ce
block_1a_conv_2/BiasAdd:0: 3d19d587
(Unnamed Layer* 27) [Constant]_output: 3e32badb
block_1a_bn_2/batchnorm/mul_1:0: 3da4573b
(Unnamed Layer* 29) [Constant]_output: 3c603cf6
block_1a_bn_2/batchnorm/add_1:0: 3c8e2be4
add_1/add:0: 3cda362e
block_1a_relu/Relu:0: 3db8c372
block_1b_conv_1/convolution:0: 3d6119d6
(Unnamed Layer* 34) [Constant]_output: 30fc8fa7
(Unnamed Layer* 35) [Shuffle]_output: 30fc8fa7
block_1b_conv_1/BiasAdd:0: 3d6119d6
(Unnamed Layer* 37) [Constant]_output: 3e974b45
block_1b_bn_1/batchnorm/mul_1:0: 3e068176
(Unnamed Layer* 39) [Constant]_output: 3cea57d1
block_1b_bn_1/batchnorm/add_1:0: 3d8cbc48
block_1b_relu_1/Relu:0: 3dc12a67
block_1b_conv_2/convolution:0: 3d3a0bee
(Unnamed Layer* 43) [Constant]_output: 313b780b
(Unnamed Layer* 44) [Shuffle]_output: 313b780b
block_1b_conv_2/BiasAdd:0: 3d3a0bef
(Unnamed Layer* 46) [Constant]_output: 3e79e38c
block_1b_bn_2/batchnorm/mul_1:0: 3e5445ac
(Unnamed Layer* 48) [Constant]_output: 3d1902a0
block_1b_bn_2/batchnorm/add_1:0: 3d8f3bcf
add_2/add:0: 3d8f3bcf
block_1b_relu/Relu:0: 3e03cf33
block_2a_conv_shortcut/BiasAdd:0: 3c811aa4
(Unnamed Layer* 53) [Constant]_output: 3e8c3052
block_2a_bn_shortcut/batchnorm/mul_1:0: 3d877189
(Unnamed Layer* 55) [Constant]_output: 3c4192f2
block_2a_bn_shortcut/batchnorm/add_1:0: 3c6a58d4
block_2a_conv_1/convolution:0: 3dd8a62d
(Unnamed Layer* 58) [Constant]_output: 31466a5d
(Unnamed Layer* 59) [Shuffle]_output: 31466a5d
block_2a_conv_1/BiasAdd:0: 3dd8a62d
(Unnamed Layer* 61) [Constant]_output: 3e479534
block_2a_bn_1/batchnorm/mul_1:0: 3dd31154
(Unnamed Layer* 63) [Constant]_output: 3cfa224c
block_2a_bn_1/batchnorm/add_1:0: 3cd8f211
block_2a_relu_1/Relu:0: 3ddbb8e1
block_2a_conv_2/convolution:0: 3d904518
(Unnamed Layer* 67) [Constant]_output: 31485f54
(Unnamed Layer* 68) [Shuffle]_output: 31485f54
block_2a_conv_2/BiasAdd:0: 3d904518
(Unnamed Layer* 70) [Constant]_output: 3eab2daf
block_2a_bn_2/batchnorm/mul_1:0: 3e147413
(Unnamed Layer* 72) [Constant]_output: 3c62ca8e
block_2a_bn_2/batchnorm/add_1:0: 3d5f3d7d
add_3/add:0: 3cf404b1
block_2a_relu/Relu:0: 3da1cb8c
block_2b_conv_1/convolution:0: 3d3dd348
(Unnamed Layer* 77) [Constant]_output: 3183b2a4
(Unnamed Layer* 78) [Shuffle]_output: 3183b2a4
block_2b_conv_1/BiasAdd:0: 3d3dd348
(Unnamed Layer* 80) [Constant]_output: 3d54291b
block_2b_bn_1/batchnorm/mul_1:0: 3dde3bfc
(Unnamed Layer* 82) [Constant]_output: 3cf73b3a
block_2b_bn_1/batchnorm/add_1:0: 3dbb45b6
block_2b_relu_1/Relu:0: 3ddcb476
block_2b_conv_2/convolution:0: 3cb1d0d7
(Unnamed Layer* 86) [Constant]_output: 317b7f1f
(Unnamed Layer* 87) [Shuffle]_output: 317b7f1f
block_2b_conv_2/BiasAdd:0: 3cb1d0d7
(Unnamed Layer* 89) [Constant]_output: 3e96fc29
block_2b_bn_2/batchnorm/mul_1:0: 3ddd0d81
(Unnamed Layer* 91) [Constant]_output: 3d20fdd0
block_2b_bn_2/batchnorm/add_1:0: 3d590ff8
add_4/add:0: 3d629a84
block_2b_relu/Relu:0: 3e279141
block_3a_conv_shortcut/BiasAdd:0: 3c0e8f4c
(Unnamed Layer* 96) [Constant]_output: 3e6d3b8f
block_3a_bn_shortcut/batchnorm/mul_1:0: 3cb009c1
(Unnamed Layer* 98) [Constant]_output: 3c3eb7e0
block_3a_bn_shortcut/batchnorm/add_1:0: 3c053bd6
block_3a_conv_1/convolution:0: 3d4e3667
(Unnamed Layer* 101) [Constant]_output: 3182381b
(Unnamed Layer* 102) [Shuffle]_output: 3182381b
block_3a_conv_1/BiasAdd:0: 3d4e3667
(Unnamed Layer* 104) [Constant]_output: 3da5597b
block_3a_bn_1/batchnorm/mul_1:0: 3dd252fd
(Unnamed Layer* 106) [Constant]_output: 3c984ac3
block_3a_bn_1/batchnorm/add_1:0: 3d8b20e9
block_3a_relu_1/Relu:0: 3dafcde5
block_3a_conv_2/convolution:0: 3d8c1e08
(Unnamed Layer* 110) [Constant]_output: 3163ac3e
(Unnamed Layer* 111) [Shuffle]_output: 3163ac3e
block_3a_conv_2/BiasAdd:0: 3d8c1e08
(Unnamed Layer* 113) [Constant]_output: 3e93e96c
block_3a_bn_2/batchnorm/mul_1:0: 3e008824
(Unnamed Layer* 115) [Constant]_output: 3c7c3dc4
block_3a_bn_2/batchnorm/add_1:0: 3d42b389
add_5/add:0: 3d514852
block_3a_relu/Relu:0: 3dccbda7
block_3b_conv_1/convolution:0: 3d24e9cd
(Unnamed Layer* 120) [Constant]_output: 311fe112
(Unnamed Layer* 121) [Shuffle]_output: 311fe112
block_3b_conv_1/BiasAdd:0: 3d24e9cd
(Unnamed Layer* 123) [Constant]_output: 3e6b03b4
block_3b_bn_1/batchnorm/mul_1:0: 3da3e5ab
(Unnamed Layer* 125) [Constant]_output: 3d0d76e4
block_3b_bn_1/batchnorm/add_1:0: 3d01c12d
block_3b_relu_1/Relu:0: 3dfaac0f
block_3b_conv_2/convolution:0: 3d447f87
(Unnamed Layer* 129) [Constant]_output: 314740c3
(Unnamed Layer* 130) [Shuffle]_output: 314740c3
block_3b_conv_2/BiasAdd:0: 3d447f87
(Unnamed Layer* 132) [Constant]_output: 3ebfc120
block_3b_bn_2/batchnorm/mul_1:0: 3e1fe311
(Unnamed Layer* 134) [Constant]_output: 3dc32208
block_3b_bn_2/batchnorm/add_1:0: 3d3dc08b
add_6/add:0: 3d5ef0d2
block_3b_relu/Relu:0: 3e377067
block_4a_conv_shortcut/BiasAdd:0: 3da69813
(Unnamed Layer* 139) [Constant]_output: 3e603ab8
block_4a_bn_shortcut/batchnorm/mul_1:0: 3d3cab4f
(Unnamed Layer* 141) [Constant]_output: 3c466264
block_4a_bn_shortcut/batchnorm/add_1:0: 3c0df81a
block_4a_conv_1/convolution:0: 3eab0191
(Unnamed Layer* 144) [Constant]_output: 316f2777
(Unnamed Layer* 145) [Shuffle]_output: 316f2777
block_4a_conv_1/BiasAdd:0: 3eab0191
(Unnamed Layer* 147) [Constant]_output: 3e78b2e7
block_4a_bn_1/batchnorm/mul_1:0: 3dbbd6af
(Unnamed Layer* 149) [Constant]_output: 3d86679d
block_4a_bn_1/batchnorm/add_1:0: 3cfc8ab9
block_4a_relu_1/Relu:0: 3d3e399a
block_4a_conv_2/convolution:0: 3d3547d8
(Unnamed Layer* 153) [Constant]_output: 31881d5c
(Unnamed Layer* 154) [Shuffle]_output: 31881d5c
block_4a_conv_2/BiasAdd:0: 3d3547d8
(Unnamed Layer* 156) [Constant]_output: 3e885099
block_4a_bn_2/batchnorm/mul_1:0: 3d821c3c
(Unnamed Layer* 158) [Constant]_output: 3c5f5b4a
block_4a_bn_2/batchnorm/add_1:0: 3c449a92
add_7/add:0: 3c416d16
block_4b_conv_1/convolution:0: 3daac4e7
(Unnamed Layer* 163) [Constant]_output: 312fba3e
(Unnamed Layer* 164) [Shuffle]_output: 312fba3e
block_4b_conv_1/BiasAdd:0: 3daac4e7
(Unnamed Layer* 166) [Constant]_output: 3e5d6bd7
block_4b_bn_1/batchnorm/mul_1:0: 3dcedc30
(Unnamed Layer* 168) [Constant]_output: 3c3a5029
block_4b_bn_1/batchnorm/add_1:0: 3cd03815
block_4b_relu_1/Relu:0: 3d3dc282
block_4b_conv_2/convolution:0: 3d4e303c
(Unnamed Layer* 172) [Constant]_output: 31599262
(Unnamed Layer* 173) [Shuffle]_output: 31599262
block_4b_conv_2/BiasAdd:0: 3d4e303c
(Unnamed Layer* 175) [Constant]_output: 3edb7a2d
block_4b_bn_2/batchnorm/mul_1:0: 3eb8ba72
(Unnamed Layer* 177) [Constant]_output: 3d250534
block_4b_bn_2/batchnorm/add_1:0: 3d8562ab
add_8/add:0: 3d8562ab
block_4b_relu/Relu:0: 3e1fb7d0
output_cov/convolution:0: 3e93b433
(Unnamed Layer* 182) [Constant]_output: 33ef18bb
(Unnamed Layer* 183) [Shuffle]_output: 33ef18bb
output_cov/BiasAdd:0: 3e93b438
output_cov/Sigmoid:0: 3bfebc7d
output_bbox/convolution:0: 3d84d6bd
(Unnamed Layer* 187) [Constant]_output: 3bd8ea69
(Unnamed Layer* 188) [Shuffle]_output: 3bd8ea69
output_bbox/BiasAdd:0: 3d99a6c2
